00
00
02
fd
00
01
fe
fd
fe
00
01
01
01
02
03
fe
02
05
01
01
01
00
01
02
fc
00
00
01
01
01
ff
00
01
fc
fe
ff
01
00
01
fc
fe
01
fd
fd
fd
02
01
02
00
02
02
fd
fd
ff
01
02
01
ff
02
02
fd
fe
fe
01
01
01
ff
01
02
fe
fd
00
00
fd
fd
02
01
fe
01
02
01
ff
fd
ff
fc
fa
fb
ff
fd
fc
ff
fd
00
01
01
fd
02
01
ff
ff
fe
fe
02
ff
fe
01
01
00
02
ff
ff
02
03
02
03
02
03
ff
fd
fe
02
ff
fc
02
03
ff
00
fe
fe
02
00
fd
02
03
00
fe
fe
ff
02
00
fe
02
01
ff
01
00
02
03
fe
01
02
fe
00
fe
ff
fe
fc
ff
fc
fe
ff
fe
00
ff
02
00
ff
ff
ff
ff
00
01
ff
01
00
ff
00
01
fe
01
03
00
04
04
01
04
03
00
00
ff
01
01
00
ff
02
00
ff
01
ff
01
00
ff
00
02
ff
00
01
ff
00
00
fe
01
01
00
01
02
00
00
00
00
00
01
ff
ff
00
00
fe
00
02
ff
fb
01
01
fd
ff
fe
ff
00
00
ff
00
ff
00
00
ff
00
01
01
ff
ff
01
01
00
02
01
fd
ff
03
fd
ff
00
01
01
fe
02
02
01
00
01
01
02
ff
ff
00
02
00
ff
01
01
02
00
fd
01
01
fe
ff
02
02
02
00
00
01
00
01
fe
fe
fe
00
00
01
02
01
00
03
04
03
ff
fe
fe
00
01
01
00
02
01
01
00
00
00
00
ff
ff
01
00
02
00
00
fe
ff
ff
fd
fd
fc
01
00
ff
02
02
02
00
01
00
01
ff
ff
02
01
00
fe
ff
ff
01
00
ff
01
01
01
00
ff
00
ff
fe
ff
ff
01
02
02
02
01
03
ff
fc
fc
00
02
ff
02
03
00
fe
00
00
01
03
02
02
00
ff
fe
ff
fe
01
02
01
01
01
ff
fd
fd
fc
fe
fe
02
00
ff
ff
00
ff
fe
ff
00
00
01
01
ff
00
ff
00
00
01
00
00
fe
00
00
01
01
00
00
01
00
fd
00
02
00
00
00
01
00
00
00
01
ff
fe
ff
fe
fd
02
01
03
01
00
01
00
00
ff
00
01
01
ff
01
01
00
00
ff
01
00
00
01
ff
00
ff
ff
ff
fe
fe
fd
ff
01
02
00
01
01
01
01
00
ff
01
00
00
00
ff
01
00
01
01
00
00
ff
ff
00
00
ff
00
00
00
00
01
01
00
01
ff
fe
00
00
fd
03
03
03
04
04
03
ff
fe
fe
01
02
02
00
01
00
ff
ff
fe
00
02
02
00
00
ff
01
ff
ff
ff
00
ff
ff
fd
fe
01
ff
ff
01
01
01
ff
00
ff
00
01
ff
02
01
01
fe
fd
fe
00
00
01
01
01
01
fe
ff
fe
fe
00
02
fd
01
01
ff
01
01
fc
fa
fc
fb
f8
fc
fd
fd
ff
fc
00
03
fe
01
01
ff
01
00
fd
01
02
fe
00
01
ff
00
00
fd
00
01
fc
ff
03
ff
00
01
fd
00
00
fe
01
00
00
01
00
ff
01
02
00
02
01
00
02
ff
00
01
01
01
02
ff
00
01
fe
00
01
00
01
01
00
00
ff
00
ff
ff
00
fd
ff
ff
fd
ff
00
ff
01
01
ff
ff
ff
ff
ff
01
00
00
01
00
01
00
01
ff
01
ff
00
01
01
02
01
01
00
00
00
00
01
00
00
00
00
01
01
00
00
00
00
01
00
00
00
00
01
01
01
01
ff
00
01
00
02
ff
00
01
fe
01
02
01
02
00
01
fe
ff
fc
fd
fe
fd
fe
ff
ff
00
03
ff
03
00
00
00
00
00
00
02
fe
00
00
01
01
ff
fd
ff
02
fb
02
02
01
00
00
ff
00
00
00
00
02
ff
01
00
00
01
01
00
02
00
01
ff
ff
ff
00
00
02
00
00
01
ff
00
00
01
02
ff
01
00
ff
01
00
fd
fd
00
fd
fe
ff
fc
fe
ff
ff
01
01
00
02
00
01
00
fe
00
00
02
00
02
01
01
01
ff
fd
ff
00
00
01
02
00
01
02
ff
01
01
01
01
ff
00
00
fd
00
00
01
01
01
ff
01
ff
fe
00
01
ff
01
ff
fd
ff
fe
fe
01
fe
ff
00
01
ff
01
00
00
02
01
fe
ff
ff
fd
04
02
01
ff
fd
fc
00
ff
ff
02
01
02
ff
fe
fe
ff
ff
00
02
02
02
00
fd
ff
01
00
fe
01
00
fe
fe
00
fd
ff
01
01
02
02
02
ff
ff
fd
ff
01
01
02
02
01
ff
ff
fd
00
01
00
02
02
01
01
01
ff
01
01
fd
02
00
fe
fc
ff
00
fc
fd
ff
fe
ff
fe
02
03
00
01
01
fc
01
ff
fe
02
01
ff
03
01
fe
01
00
fe
02
03
02
02
02
fe
02
01
fe
01
01
ff
01
01
fd
00
ff
fe
02
00
fe
02
00
fd
01
00
ff
02
ff
fd
01
fd
fe
00
fe
00
00
ff
00
00
ff
01
01
00
00
01
fe
fd
00
fe
fc
fe
fc
fc
00
fd
01
00
01
01
ff
ff
ff
00
fe
00
01
01
01
01
00
00
02
ff
fe
01
ff
ff
00
ff
ff
ff
ff
ff
01
01
00
00
01
01
01
ff
01
00
01
01
01
01
01
fe
01
01
00
01
01
00
01
01
ff
01
00
fe
01
02
fd
00
01
ff
fb
fd
00
fb
fc
fe
fe
ff
ff
00
00
fe
ff
ff
fe
ff
00
01
01
01
00
01
00
fe
01
01
01
03
03
fe
03
03
fd
00
02
02
01
ff
02
02
00
fe
01
01
01
01
fe
00
02
ff
ff
01
00
01
00
fe
01
02
ff
ff
01
02
