ff
fd
fe
ff
ff
00
ff
ff
00
01
ff
fe
ff
00
00
ff
ff
fd
fe
01
00
00
00
ff
00
ff
00
00
01
00
ff
00
00
02
00
fe
00
01
ff
00
fe
ff
00
00
fe
00
00
01
fe
fe
00
ff
00
00
ff
00
00
00
01
02
00
00
01
01
02
00
01
01
00
00
00
01
01
fe
ff
00
00
00
01
01
00
01
01
01
01
00
00
ff
00
01
00
00
ff
ff
00
00
00
01
ff
ff
00
ff
00
00
00
00
00
00
00
01
ff
ff
ff
ff
00
01
00
ff
00
00
00
00
01
01
00
00
00
ff
00
00
01
00
00
00
00
01
01
00
fe
00
01
00
00
01
01
ff
00
00
00
00
00
00
00
00
01
00
01
00
00
00
00
00
ff
ff
00
00
00
ff
00
00
00
00
00
00
00
ff
fe
00
00
ff
00
ff
00
00
fe
ff
00
ff
fe
00
ff
ff
ff
01
01
00
00
01
01
ff
00
00
ff
ff
ff
01
ff
00
00
00
01
00
00
ff
01
00
01
ff
00
01
01
00
ff
00
00
00
ff
01
00
01
ff
00
00
01
00
00
00
00
00
01
00
01
ff
ff
01
00
01
00
ff
ff
00
00
00
00
00
00
00
00
00
00
00
01
00
ff
01
00
00
00
00
00
00
00
ff
00
00
ff
ff
ff
ff
00
00
00
00
ff
00
01
01
01
ff
00
01
00
00
00
01
00
00
ff
00
ff
00
00
00
00
00
00
01
00
00
00
00
00
fe
fe
ff
ff
ff
ff
01
00
ff
00
01
01
00
ff
fe
ff
ff
00
fe
00
ff
ff
00
00
01
01
ff
00
00
00
01
00
00
00
00
ff
ff
00
00
00
01
01
01
00
00
00
00
00
00
00
fe
ff
01
00
00
ff
01
00
01
01
01
00
00
00
ff
ff
00
00
00
00
00
01
01
01
01
00
01
01
01
01
00
00
00
01
01
01
fe
fe
00
01
ff
ff
fd
00
00
ff
fe
fe
01
00
ff
00
00
00
00
00
00
00
00
ff
ff
01
01
01
00
00
00
00
01
00
00
00
fe
00
fc
00
00
ff
fe
ff
00
00
00
01
00
02
00
02
ff
01
01
02
00
ff
ff
ff
00
ff
00
ff
ff
01
00
00
ff
00
00
ff
00
fe
00
ff
ff
00
00
00
ff
ff
00
00
00
ff
00
00
fe
00
ff
ff
ff
ff
00
ff
00
00
ff
00
00
02
00
00
ff
ff
ff
00
ff
00
ff
ff
01
00
ff
ff
ff
00
00
ff
ff
ff
00
00
00
00
00
ff
00
00
00
00
00
ff
00
00
00
00
00
01
00
ff
00
00
00
fe
01
01
01
00
ff
01
ff
00
ff
00
ff
00
00
00
00
00
01
00
01
00
00
00
00
01
ff
00
00
00
00
00
01
00
00
ff
ff
ff
00
00
ff
fe
ff
00
00
00
fe
ff
00
00
fe
fe
ff
01
01
ff
ff
01
00
00
02
01
02
00
ff
ff
01
01
00
ff
01
02
00
fe
00
01
00
ff
ff
ff
01
00
ff
00
00
00
00
00
00
00
00
00
00
00
ff
00
01
00
00
ff
00
01
00
00
00
01
00
01
00
ff
01
01
01
ff
ff
ff
01
01
00
ff
01
01
00
fe
00
01
00
00
00
ff
00
00
fe
01
ff
02
01
01
ff
fe
ff
01
00
01
00
01
01
00
00
01
00
01
ff
01
02
01
ff
00
00
ff
ff
ff
00
00
ff
00
00
ff
01
00
01
ff
fe
00
00
ff
ff
00
01
01
00
00
01
00
00
01
01
00
01
fe
00
01
00
00
ff
00
01
01
00
ff
02
00
ff
ff
02
00
ff
00
ff
00
01
01
00
ff
ff
00
01
00
00
00
00
01
ff
00
00
01
00
ff
00
01
00
00
00
01
00
01
00
00
01
ff
00
00
ff
00
fd
00
01
00
fe
ff
01
01
00
ff
ff
00
01
00
00
01
01
01
ff
00
01
01
01
ff
00
00
00
ff
ff
00
fe
00
00
01
01
00
01
01
02
ff
ff
00
00
00
00
00
02
02
00
01
ff
01
00
ff
ff
fc
00
ff
ff
fe
00
00
01
02
ff
ff
00
00
00
ff
fe
00
01
01
ff
fe
fe
00
01
00
00
ff
00
ff
00
01
ff
ff
00
00
00
01
00
01
ff
ff
00
01
00
ff
fe
ff
ff
ff
00
00
00
00
ff
00
00
00
01
01
00
00
00
00
00
01
00
01
00
ff
00
ff
ff
ff
ff
00
ff
00
00
00
00
01
01
01
01
01
00
00
00
ff
00
00
00
ff
ff
01
01
00
00
01
02
01
01
01
01
00
00
00
00
00
00
00
00
00
00
00
00
ff
ff
ff
00
00
ff
00
00
00
00
01
00
00
00
01
ff
ff
01
01
00
00
00
00
01
00
00
00
fd
00
01
ff
ff
ff
00
00
00
01
02
00
00
ff
00
01
00
01
ff
ff
fe
00
00
01
00
ff
00
ff
ff
01
01
00
00
01
01
00
01
01
00
00
fe
00
00
01
00
00
00
ff
00
00
00
00
ff
ff
ff
00
00
00
01
00
00
00
01
00
00
01
00
00
ff
ff
fe
ff
00
00
ff
00
00
00
ff
00
02
01
01
00
00
00
01
01
00
00
ff
00
00
ff
00
01
01
00
00
ff
00
01
fe
00
00
00
01
00
01
00
ff
01
00
00
ff
00
00
00
00
00
ff
00
00
00
ff
ff
02
01
00
00
ff
01
00
00
01
01
00
ff
00
01
04
00
fe
00
00
00
00
ff
00
00
01
00
fe
ff
00
00
ff
fd
00
00
ff
03
01
ff
ff
ff
00
00
00
ff
00
00
00
ff
fe
00
00
ff
00
00
00
01
01
00
01
00
00
01
01
00
00
ff
00
00
01
01
ff
ff
00
01
01
ff
fe
ff
ff
00
00
00
ff
ff
fe
00
01
ff
00
00
00
01
02
01
ff
00
00
01
ff
fe
00
00
00
00
00
00
01
01
01
ff
00
00
00
00
fe
00
00
00
01
01
ff
fe
ff
ff
00
03
00
fd
ff
00
02
02
00
01
01
02
00
ff
00
ff
ff
00
00
01
01
ff
fe
fe
ff
00
fe
ff
ff
fe
ff
ff
ff
ff
ff
00
01
00
fe
fe
00
00
00
01
00
01
ff
fe
00
00
ff
fe
ff
00
00
00
00
01
01
01
00
01
00
00
00
ff
00
01
01
00
00
00
00
00
00
ff
ff
ff
00
01
01
00
00
01
01
00
00
00
00
00
ff
00
00
00
00
ff
00
00
01
00
00
00
01
03
01
00
ff
ff
00
00
ff
00
00
01
01
00
00
00
00
00
00
00
ff
00
00
00
fe
ff
01
01
00
00
00
00
00
ff
00
00
00
00
ff
00
01
00
00
ff
01
01
00
00
00
00
00
01
01
00
ff
00
00
00
fe
00
ff
00
01
ff
00
ff
00
fe
fe
00
00
ff
ff
00
ff
ff
00
00
ff
ff
ff
00
ff
ff
00
ff
fe
00
00
00
00
00
00
00
00
00
00
00
00
ff
ff
00
00
00
ff
00
00
00
ff
00
00
00
00
00
00
00
00
ff
ff
ff
ff
00
01
02
ff
00
01
00
ff
ff
ff
00
ff
ff
ff
00
00
01
00
00
ff
ff
00
00
00
00
ff
00
00
01
01
00
01
00
fe
fe
ff
ff
00
ff
ff
ff
00
00
00
01
01
00
00
00
00
00
ff
ff
ff
00
01
01
00
00
ff
00
00
ff
01
01
01
00
fe
00
ff
00
00
00
00
fd
ff
00
00
00
01
ff
00
00
00
fe
fe
00
01
fe
fe
fe
00
01
00
00
00
00
01
00
ff
00
00
00
ff
00
01
00
ff
ff
00
ff
ff
01
01
00
00
01
01
00
00
00
00
01
ff
fe
ff
00
00
fe
fe
ff
ff
00
00
ff
00
00
00
00
00
ff
00
00
01
00
00
fe
ff
00
ff
fd
fe
fe
00
00
00
ff
00
00
00
01
00
01
00
fe
ff
01
01
01
02
01
01
ff
00
01
00
ff
ff
fd
ff
ff
ff
00
ff
01
01
fe
ff
fd
fd
01
00
00
00
00
02
03
01
00
02
01
02
00
00
ff
00
01
01
fe
fe
ff
fe
00
ff
fe
00
01
00
00
00
ff
ff
ff
00
01
fe
ff
fe
01
00
00
00
ff
00
00
00
01
00
00
ff
00
00
00
ff
ff
fe
fd
ff
ff
ff
fe
fe
ff
01
01
01
ff
00
01
01
01
01
00
00
ff
ff
ff
00
00
ff
00
00
02
ff
00
00
00
01
00
00
ff
00
01
00
ff
ff
00
00
01
00
ff
fe
00
ff
00
ff
ff
01
ff
00
ff
ff
00
00
01
ff
01
00
01
00
00
01
00
00
ff
ff
ff
00
00
ff
fe
ff
01
ff
fe
ff
ff
01
00
01
00
ff
01
01
00
01
01
00
00
00
00
fe
00
00
00
01
02
01
ff
00
00
01
02
ff
01
00
01
01
00
00
00
00
01
00
00
01
00
00
00
ff
00
00
01
00
00
ff
00
00
00
00
00
00
00
00
00
00
00
00
00
fe
00
00
00
00
ff
00
00
02
00
00
01
01
01
00
01
ff
00
01
00
ff
ff
00
00
00
00
00
00
00
00
01
02
01
00
00
00
00
00
00
00
00
00
00
00
00
01
00
01
00
00
00
00
00
00
00
ff
ff
00
00
ff
00
ff
00
ff
00
00
00
00
01
00
00
01
01
01
00
00
fe
fe
00
00
01
01
01
00
00
02
01
01
01
ff
01
01
ff
01
fe
00
00
00
00
00
00
01
00
00
00
00
00
00
00
ff
00
00
01
01
00
01
ff
01
00
00
00
ff
00
ff
00
ff
00
ff
00
00
00
01
00
00
00
01
00
00
ff
00
01
ff
00
ff
00
ff
00
00
00
ff
ff
00
01
00
ff
ff
ff
01
01
ff
ff
00
01
01
01
00
00
01
02
01
01
00
01
ff
01
00
ff
ff
ff
ff
00
ff
ff
ff
fd
ff
00
ff
fe
02
01
02
01
02
01
01
00
02
01
00
00
00
00
ff
01
01
00
ff
01
01
01
00
fe
fe
00
00
ff
00
fe
ff
ff
ff
01
00
00
00
ff
ff
01
00
00
ff
ff
fe
01
00
00
00
ff
ff
00
00
01
00
00
00
ff
00
00
00
01
01
00
ff
00
00
00
00
00
ff
00
00
01
01
00
01
00
00
01
00
01
00
00
00
00
00
00
ff
00
ff
00
00
00
00
00
ff
00
ff
01
ff
ff
00
fe
fe
00
ff
00
ff
ff
00
01
01
01
01
ff
00
01
01
00
00
00
00
01
00
00
01
ff
ff
fe
00
00
ff
ff
00
00
00
01
00
00
ff
ff
00
01
02
ff
ff
00
01
02
00
01
01
00
00
01
00
00
00
ff
01
00
00
ff
00
ff
00
00
02
01
00
00
01
01
ff
00
00
01
ff
fd
ff
ff
00
00
ff
00
ff
00
01
00
00
00
00
00
ff
00
01
00
00
ff
00
01
00
ff
ff
ff
00
00
00
00
00
00
00
00
01
00
01
00
01
01
00
00
00
fe
fd
00
00
ff
ff
fd
00
ff
ff
00
00
00
ff
00
01
01
fe
00
00
00
ff
fe
00
00
00
00
fe
ff
00
ff
00
ff
ff
ff
00
00
01
00
00
00
00
00
01
00
00
00
ff
00
00
01
02
fe
00
00
00
01
01
ff
00
00
ff
00
02
01
00
00
ff
fe
fd
fe
00
ff
01
00
ff
fe
fe
ff
00
ff
ff
fe
fe
ff
00
00
00
ff
ff
00
00
00
01
00
00
00
00
00
01
00
00
00
00
00
ff
01
ff
00
ff
00
00
00
01
01
00
00
00
01
ff
ff
fe
00
01
00
ff
fd
00
01
01
00
00
ff
00
01
01
01
ff
00
ff
00
00
01
fe
fe
ff
00
00
fd
fd
00
02
ff
fd
fd
00
00
00
ff
ff
01
ff
00
01
01
00
00
00
00
ff
fe
ff
ff
00
fe
fd
00
fe
00
ff
01
01
fd
00
ff
01
00
ff
ff
00
ff
ff
01
01
01
00
ff
01
00
ff
fe
fd
01
01
00
00
ff
01
02
01
00
01
00
01
00
ff
ff
00
ff
00
ff
00
00
00
ff
ff
00
00
00
ff
00
02
00
00
01
01
00
ff
01
01
00
00
00
ff
ff
00
01
ff
ff
ff
ff
00
ff
ff
ff
00
01
00
ff
00
01
00
ff
00
01
01
00
00
00
00
00
00
00
00
00
00
00
00
00
00
00
00
ff
00
ff
00
00
ff
00
00
00
00
01
00
00
00
ff
00
00
00
ff
ff
00
00
00
ff
00
00
01
00
00
00
00
01
00
01
00
00
00
00
00
01
fe
fe
ff
00
00
fe
fe
00
00
ff
00
fe
ff
01
01
00
00
01
01
00
01
01
01
01
02
00
00
00
ff
ff
00
01
00
fe
fe
00
01
01
ff
ff
00
00
00
ff
00
01
00
00
00
00
00
ff
ff
ff
ff
00
00
00
00
00
00
01
01
01
00
00
01
00
01
00
00
00
00
00
00
00
00
01
00
ff
00
01
00
ff
00
00
01
01
00
00
00
00
00
ff
ff
01
01
01
00
00
00
01
01
ff
ff
00
00
00
ff
ff
00
01
00
00
00
ff
ff
00
00
00
00
ff
ff
ff
ff
ff
00
00
00
01
00
00
01
01
02
00
ff
ff
00
ff
fd
00
00
00
ff
01
02
02
00
00
02
01
01
00
ff
01
01
00
fe
fe
00
01
00
ff
01
ff
ff
ff
ff
00
01
00
00
ff
ff
00
00
00
00
ff
01
00
01
00
01
01
01
01
00
01
ff
00
00
00
ff
00
00
00
00
00
00
00
ff
fe
00
00
00
00
fe
00
00
01
01
00
00
00
01
01
ff
00
02
02
02
00
00
01
01
01
01
ff
ff
00
00
01
ff
ff
01
fe
fe
01
fe
fe
ff
00
00
02
01
00
00
00
04
03
01
00
00
00
00
ff
00
ff
fd
01
ff
ff
ff
fe
fd
00
ff
ff
00
01
00
ff
00
00
00
00
ff
00
fe
fd
01
00
00
fe
ff
00
ff
ff
ff
fe
00
01
00
00
00
00
00
ff
00
00
00
01
00
00
ff
ff
ff
ff
ff
00
00
ff
01
ff
fe
00
00
00
01
01
00
00
fe
01
01
01
01
ff
00
00
ff
00
00
ff
ff
ff
00
00
ff
fe
ff
ff
00
00
00
00
00
00
ff
00
00
00
01
00
01
00
ff
00
01
02
00
01
01
01
00
00
fe
fe
00
01
00
00
00
01
01
00
00
00
00
00
ff
ff
00
00
00
00
01
00
00
ff
00
ff
ff
01
00
00
01
ff
00
00
01
00
00
01
01
00
ff
00
00
00
00
01
01
ff
ff
ff
ff
00
ff
ff
ff
ff
ff
ff
00
00
00
01
ff
00
01
01
00
00
ff
00
01
02
00
00
00
01
00
00
00
00
ff
ff
01
00
00
00
00
00
ff
00
00
00
ff
00
fe
01
00
00
ff
00
00
00
00
00
ff
ff
ff
ff
00
00
01
01
ff
ff
00
01
00
ff
00
00
01
00
00
01
00
00
00
ff
ff
fe
00
00
ff
00
00
01
00
00
01
00
01
00
02
02
ff
00
00
00
01
00
00
00
00
01
00
00
00
01
01
01
01
01
00
02
ff
00
00
00
01
00
00
00
01
ff
fe
ff
fd
00
01
fe
00
00
fe
fe
00
00
01
fe
00
01
00
00
02
04
01
00
01
01
02
02
01
01
00
00
ff
00
00
00
01
01
01
01
00
ff
00
00
ff
ff
ff
01
00
ff
00
ff
00
00
fe
00
00
00
ff
fe
00
00
ff
00
00
ff
ff
ff
01
00
00
fe
ff
ff
ff
ff
fe
00
01
ff
00
00
00
ff
01
00
00
00
ff
00
01
01
01
00
00
01
ff
00
00
01
01
00
ff
ff
ff
fd
fe
ff
00
00
fe
fe
ff
ff
00
fd
00
00
fe
ff
fb
fb
fe
00
01
fc
ff
ff
01
00
00
ff
ff
00
00
00
00
00
01
00
01
01
01
ff
ff
00
01
01
01
00
00
02
02
02
01
00
00
00
00
00
00
01
01
00
01
01
02
02
00
00
00
00
01
00
01
01
00
00
00
ff
00
00
00
00
00
00
00
00
00
00
01
01
01
00
01
ff
00
00
00
00
00
01
00
00
00
00
00
01
00
00
00
00
00
00
00
00
ff
00
01
02
00
01
00
00
ff
00
00
ff
01
00
00
00
00
00
00
00
ff
00
00
00
01
00
00
00
00
ff
00
00
ff
00
00
01
00
00
00
00
00
00
00
00
00
00
00
00
01
00
ff
ff
00
01
ff
00
00
ff
00
00
ff
00
01
00
00
00
00
00
00
00
00
ff
ff
00
00
00
ff
ff
01
00
00
00
fe
fe
00
00
ff
fe
00
00
00
00
00
00
00
01
00
00
00
01
00
00
00
00
00
00
01
00
00
ff
01
00
00
00
00
00
00
00
00
00
01
00
00
00
00
ff
ff
00
00
01
00
01
ff
fe
00
00
ff
ff
00
ff
01
00
ff
00
00
00
00
00
ff
ff
ff
ff
00
00
00
01
01
ff
00
ff
ff
ff
ff
00
00
00
00
00
01
01
ff
00
00
01
00
ff
00
00
ff
01
00
ff
00
00
ff
ff
00
00
ff
ff
00
ff
00
00
ff
00
ff
ff
00
fe
00
ff
00
00
fe
01
00
00
00
fe
00
ff
00
01
00
00
00
00
00
01
00
ff
00
00
00
00
00
00
ff
00
00
00
fe
01
00
01
fe
00
01
00
ff
ff
00
00
01
00
01
00
00
00
01
02
00
ff
00
01
01
00
00
01
00
00
00
01
fd
fb
fd
00
fd
ff
ff
ff
00
00
ff
00
01
ff
ff
00
00
01
00
fe
00
00
00
ff
00
ff
fe
ff
01
01
fd
fd
fe
00
01
fd
00
fe
00
00
00
01
00
fe
fe
00
00
00
00
00
ff
ff
fe
fe
fe
00
01
00
ff
00
01
02
01
ff
01
01
ff
ff
00
01
00
fd
ff
00
00
00
00
00
00
00
00
00
01
01
01
00
01
00
01
00
00
00
ff
00
ff
00
ff
ff
ff
01
00
00
00
00
00
00
ff
00
00
00
00
01
02
00
ff
00
01
01
00
ff
00
00
ff
ff
ff
01
00
00
01
ff
01
01
00
00
ff
ff
ff
ff
01
00
fe
fe
00
00
00
00
00
00
ff
ff
00
00
00
01
00
00
00
00
00
00
00
00
01
00
ff
01
00
00
00
ff
00
ff
ff
ff
00
fe
01
01
00
ff
00
00
00
00
ff
ff
ff
01
00
ff
00
01
01
ff
fd
00
01
01
fe
fe
00
00
fe
fe
fe
01
00
00
ff
fe
01
01
ff
ff
01
00
00
ff
00
01
00
ff
00
01
01
00
ff
00
ff
ff
00
00
01
00
00
00
01
01
00
00
00
00
00
ff
00
00
ff
ff
00
00
00
00
00
ff
ff
01
00
01
00
ff
00
00
ff
00
01
00
00
fe
00
01
00
ff
00
01
00
fe
ff
fe
fe
ff
01
00
00
00
00
00
00
ff
00
01
ff
fe
00
01
00
ff
01
01
00
ff
00
00
00
01
00
01
00
00
00
ff
ff
ff
00
00
fe
fd
ff
00
ff
fd
00
00
00
00
00
fe
fc
fe
ff
00
ff
00
ff
00
00
01
01
fe
01
01
ff
ff
ff
01
01
fe
fe
01
00
00
00
00
ff
00
ff
00
01
00
01
00
00
00
00
00
00
00
ff
ff
00
ff
00
ff
01
00
00
00
ff
ff
ff
ff
00
00
00
01
01
00
01
00
01
01
00
01
00
00
00
00
ff
ff
00
01
